</unk>
二
ح
ه
b
ǐ</w>
'
Β
ð
ป
⁄</w>
̃</w>
お
#</w>
前
α</w>
ふ
ϕ</w>
ج
I
Z
յ</w>
Å
氾
Ο
ợ
国</w>
у
Y
韓
ド
̐</w>
ễ
孩
ṉ
ʈ</w>
0</w>
Ā
遠</w>
Ż
ह
μ</w>
̤</w>
杜
ò</w>
ள</w>
В
क</w>
タ
н</w>
়</w>
ك</w>
།</w>
町</w>
`
ʁ</w>
¿</w>
ʕ</w>
ო</w>
廷
宋
“</w>
Σ</w>
↑</w>
紋
瓦</w>
ز</w>
κ
¼</w>
ề
ơ
ョ
þ
₡</w>
Χ</w>
P</w>
用</w>
,</w>
海
β</w>
乙
令</w>
ọ
g</w>
й</w>
8</w>
ž
ɢ</w>
ʊ</w>
Í
′</w>
Ə
ÿ</w>
｢</w>
ع
ι
̺</w>
箇</w>
з
金
V</w>
ч</w>
¾</w>
ស
ἡ</w>
ị
じ
方
ف
ὑ
ψ
Q
ὴ
ὰ</w>
ზ</w>
五
ի</w>
ḥ
ク</w>
n</w>
Ἠ
ñ
ψ</w>
é</w>
κ</w>
住</w>
ț</w>
্</w>
­</w>
ล
ォ
…</w>
C</w>
ầ
ǎ
ľ
p</w>
₫</w>
銖</w>
i
Ι</w>
”</w>
ب</w>
天
動
サ</w>
ē
」</w>
þ</w>
*</w>
、</w>
v
x</w>
č
ャ
Ψ</w>
̟</w>
Δ</w>
ち
ʲ
d</w>
⊙</w>
Ω</w>
Ø</w>
ü
＝</w>
д</w>
µ
้</w>
â</w>
花</w>
ị</w>
υ
ũ</w>
ā</w>
ו</w>
θ</w>
6</w>
※</w>
⌋</w>
γ</w>
活
サ
ɾ
ル
ת</w>
đ</w>
̆</w>
ɒ
G</w>
ớ
ã
京
ハ
子</w>
本</w>
ł</w>
U
ρ
φ
↔</w>
⋅</w>
ἱ</w>
ս</w>
？</w>
ð</w>
ṅ
ป</w>
ź
₤</w>
म
Α</w>
E
Ü</w>
S</w>
後
ỳ
ø
オ
उ
र</w>
空</w>
≈</w>
К
⅝</w>
د</w>
裁
死
0
រ
ग</w>
̀</w>
Ž
á</w>
ば</w>
]</w>
ั
ℓ</w>
˩</w>
ö</w>
か
غ
X</w>
＆</w>
À
Ł
b</w>
d
グ
い
ą</w>
~</w>
ソ
ổ
心
ア
e</w>
別
ệ
у</w>
տ
作
Г
l
♮</w>
ę
q
弘
₩</w>
̽</w>
雄</w>
ウ
भ
刘
ł
青</w>
ん
k</w>
Đ
η</w>
ῦ</w>
투</w>
メ</w>
ا</w>
M</w>
聖
←</w>
⟩</w>
ê</w>
ᾶ
ד</w>
H</w>
ʿ
式</w>
ɛ</w>
大
ư
鬼
Ř
し
я</w>
ș</w>
ह</w>
街</w>
ল
日</w>
ώ
ť
L
ư</w>
ジ
条</w>
˧</w>
ח</w>
ʟ</w>
Γ</w>
∈</w>
ɻ</w>
ɛ
하
‡</w>
ɔ
佛
ὺ
火
ត</w>
ă
⇌</w>
～</w>
3
植
т</w>
ц
真</w>
в
ǐ
Φ
♣</w>
ἀ
﻿</w>
ʰ
Ó</w>
カ
神</w>
き</w>
і
ˠ</w>
с
ṣ
ɬ</w>
â
道</w>
վ
1</w>
ừ
(</w>
ń
ɯ</w>
л
ナ
④</w>
в</w>
積
ὁ</w>
号
Ö</w>
></w>
ǫ
ព</w>
Μ</w>
ɕ</w>
ء</w>
կ
G
Н
2
ậ
野</w>
軍</w>
⅜</w>
¥</w>
æ</w>
Р
群
②</w>
瀬</w>
Κ
!</w>
ი</w>
a</w>
ę</w>
ン
ύ
̝</w>
Ὄ
こ
ィ
ɡ
ɑ
不
ɖ</w>
ý
͜</w>
ɣ</w>
ử</w>
ồ
8
つ
土</w>
̄</w>
^</w>
ʼ</w>
[</w>
֫</w>
̥</w>
О
:</w>
و</w>
ē</w>
像</w>
Z</w>
ч
჻</w>
ə</w>
่</w>
љ
ç
≤</w>
∆</w>
ň
〜</w>
े</w>
պ
議</w>
厘</w>
¡</w>
짓
氏</w>
B
⅔</w>
ズ
X
Α
τ</w>
п
逆
ở
।</w>
Î
ي</w>
Ō</w>
5</w>
ベ
正
Ч
;</w>
ệ</w>
h</w>
´</w>
ッ
ს</w>
ā
↓</w>
Е
∝</w>
ば
ه</w>
転
9
Б
ǎ</w>
一</w>
ا
ɪ</w>
ğ</w>
ר
Ī
L</w>
ی
⁺</w>
ů</w>
ノ</w>
}</w>
ट
リ
द</w>
«</w>
î
ァ
å
τ
ő</w>
‚</w>
œ
Λ</w>
魔
์</w>
π
雪
四
な
Q</w>
​</w>
所</w>
사</w>
с</w>
ś</w>
①</w>
ю
υ</w>
ἶ
ø</w>
Á
ぐ
"</w>
様
Ο</w>
ス
カ</w>
‒</w>
O</w>
ត
₃</w>
ჯ</w>
Ţ
ḻ</w>
ら</w>
ℓ
य
寔</w>
ら
A
♩</w>
コ
ว</w>
ל
T</w>
˦</w>
ʌ
ワ
∀</w>
ǔ</w>
स
彼
莊
é
แ
̱</w>
ṯ
時
ʝ</w>
É
’</w>
y</w>
ق</w>
հ
ल</w>
{</w>
±</w>
ħ</w>
列
戦
J</w>
ʌ</w>
ก
ร</w>
フ
s
R</w>
Θ</w>
ς</w>
</w>
̂</w>
催
Ț
東
双
=</w>
ī
p
²</w>
・</w>
र
r</w>
ս
ी
π</w>
r
隻</w>
í
）</w>
\</w>
ồ</w>
ž</w>
≢</w>
ỹ</w>
境
ņ
ˁ</w>
ុ</w>
！</w>
́</w>
月</w>
ä</w>
f
。</w>
ŷ</w>
氣</w>
世
Մ
ἄ
ο
φ</w>
y
ė
ي
ἵ
$</w>
็</w>
神
്</w>
Φ</w>
ま</w>
ず
₣</w>
်</w>
〈</w>
ヒ
루</w>
ー</w>
秋</w>
จ</w>
判</w>
ó</w>
ウ</w>
ί
ī</w>
∩</w>
t
რ</w>
ι</w>
ţ
ʘ</w>
版</w>
ừ</w>
ե
韓</w>
ा</w>
ω</w>
ơ</w>
ử
界</w>
日
か</w>
Ι
П
Č
★</w>
隴
♭</w>
ت</w>
ュ
ブ</w>
म</w>
·</w>
Ś
া
ß
Т
إ
전
Ä
ダ
г
अ
Ḥ
星
ब</w>
ف</w>
®</w>
集
ɟ</w>
ʋ</w>
∼</w>
ş</w>
ж
ʾ</w>
水</w>
˔</w>
：</w>
э</w>
風
7
く
ो
†</w>
₨</w>
内</w>
ố
ṛ
Ì
⌊</w>
ʁ
ỗ</w>
М</w>
м</w>
⋯</w>
浅
ấ
∕</w>
約
æ
ɗ</w>
o
B</w>
ș
ر</w>
綾
ō</w>
ɑ</w>
य</w>
</w>
法</w>
ᛋ</w>
∞</w>
ん</w>
9</w>
а</w>
İ
स</w>
õ
マ
ガ
о
ザ
り
ី
m</w>
エ
ร
า
å</w>
ὸ
Ј
ト
2</w>
c
節
-
⊥</w>
博
ă</w>
Š
U</w>
̠</w>
卒</w>
鼓</w>
Կ
ĩ</w>
净</w>
ῆ
©</w>
л</w>
ɪ
ὸ</w>
Ľ
ি
♀</w>
⅛</w>
ά</w>
루
ต
¹</w>
ể</w>
侠
ɲ
ẩ
β
巨
£</w>
ʀ</w>
ះ</w>
ε
µ</w>
ո</w>
ド</w>
À</w>
ի
ë
ס</w>
ं</w>
|</w>
М
さ
ū
་</w>
ฐ
د
ὼ
š
ナ</w>
д
ṭ
H
̪</w>
w</w>
流</w>
∑</w>
А
⩽</w>
і</w>
D</w>
ć</w>
説</w>
ξ</w>
़</w>
ח
∂</w>
Ξ</w>
王
≡</w>
ʲ</w>
⊂</w>
ế</w>
-</w>
ぅ</w>
書</w>
់</w>
฿</w>
ᛟ</w>
კ</w>
議
ß</w>
ú
आ
마
ọ</w>
מ
ʒ</w>
đ
и</w>
¯</w>
量
ザ</w>
ứ
☆</w>
Θ
ぽ
û
部</w>
千</w>
น
Æ</w>
Ý
ব
м
`</w>
路
‿</w>
ì</w>
̯</w>
ũ
è</w>
˨</w>
ि
—</w>
█</w>
Ú
?</w>
ö
‑</w>
士
北
x
प
أ
Π</w>
Ῥ
q</w>
&</w>
女
ま
ữ
Λ
ˈ
ɓ</w>
р</w>
م
ы
t</w>
€</w>
ि</w>
V
द
³</w>
،</w>
台</w>
ブ
と
ã</w>
椎
к
♠</w>
春
1
Ó
᷉</w>
ย
σ</w>
が
ï
ḑ
ラ
न</w>
ρ</w>
木</w>
त
ノ
χ</w>
久
∖</w>
រ</w>
™</w>
P
י</w>
S
გ</w>
ⴷ</w>
武
ヴ
ユ
勝
ė</w>
я
ʷ</w>
谷
Ö
ή
ง</w>
≪</w>
⟧</w>
ň</w>
З</w>
ţ</w>
ա
э
ն</w>
ṇ
』</w>
̲</w>
ὲ</w>
̧</w>
ˌ
ğ
‍</w>
7</w>
Π
4</w>
ò
ż</w>
‼</w>
ả</w>
∘</w>
Κ</w>
ɵ</w>
併
ằ
ー
ิ
è
ց
ש
λ
ն
个
伝</w>
オ</w>
ス</w>
ʍ</w>
ム</w>
ù
ल
ў
ό
Â</w>
ả
蛍
Ε</w>
F</w>
े
Я
‰</w>
×</w>
枚</w>
ỵ</w>
ř
錬
√</w>
N
词</w>
˚</w>
շ
外
Å</w>
耕</w>
光</w>
ោ
↪</w>
ु
分</w>
⟦</w>
̞</w>
↗</w>
撃
Â
ן</w>
ɦ</w>
ġ
場
И</w>
ম
/</w>
№</w>
プ
֤</w>
魂</w>
ﬁ
˥</w>
е</w>
‘</w>
צ
リ</w>
匹</w>
仙
ὡ
̰</w>
ク
ạ
下</w>
ত
u</w>
א
ῦ
♦</w>
剛</w>
℃</w>
ь</w>
ト</w>
⁡</w>
α
魄</w>
∗</w>
E</w>
ன</w>
ル</w>
Ș
火</w>
ˈ</w>
セ
¶</w>
宗
楽
ɴ</w>
ъ
ự</w>
生</w>
დ</w>
ʇ</w>
ʂ</w>
⁊</w>
္</w>
士</w>
ț
W
ी</w>
ί</w>
同</w>
ŋ</w>
ペ
č</w>
+</w>
ン</w>
₂</w>
̚</w>
ĩ
К</w>
Ō
モ
Η</w>
⊕</w>
х
松
막</w>
草
太
ä
Д
%</w>
ʎ</w>
Ź
▲</w>
خ
ľ</w>
բ
少
K</w>
v</w>
ʃ
M
ξ
ェ
₁</w>
Y</w>
្</w>
Τ
ô</w>
ы</w>
ب
條</w>
−</w>
ġ</w>
о</w>
守</w>
イ
̩</w>
⇄</w>
語</w>
ツ</w>
,
月
º</w>
へ</w>
个</w>
∴</w>
И
ş
</w>
Đ</w>
ズ</w>
國
거
み
季
ờ
s</w>
ϕ
R
χ
ր
心</w>
й
介</w>
ạ</w>
〉</w>
ʿ</w>
̊</w>
½</w>
K
Ν
ǒ
礮</w>
ム
寺
.
南
尾</w>
ᛃ</w>
章</w>
坂</w>
丑</w>
ʊ
A</w>
気</w>
е
ː
Ď
ע</w>
₱</w>
人</w>
亦
6
ポ
ɲ</w>
編</w>
Ἕ
ü</w>
F
ʾ
Ω
戦</w>
ش
ビ
ć
„</w>
Հ
早
έ</w>
ı
ˤ</w>
く</w>
靈
₹</w>
<</w>
ḷ
ı</w>
劇
ẹ</w>
k
殻
ボ
婷</w>
ɐ</w>
ż
ν</w>
O
à</w>
―</w>
Ս
Ш</w>
॥</w>
ロ
西
ვ</w>
Ħ
س
膺</w>
i</w>
ɨ</w>
朝</w>
უ</w>
ե</w>
ც</w>
ј
а
տ</w>
</w>
歩</w>
ث</w>
ắ
ɡ</w>
λ</w>
प</w>
з</w>
『</w>
ミ
･</w>
n
ḍ
»</w>
グ</w>
ś
ổ</w>
銀
∪</w>
5
к</w>
N</w>
б
字</w>
進
Ş
Р</w>
ហ
ั</w>
ç</w>
ヤ
民
ג</w>
哈
ụ
溜
零
_</w>
°</w>
া</w>
ế
I</w>
ɧ</w>
よ
⅓</w>
ם</w>
י
ɒ</w>
נ
u
≥</w>
♥</w>
l</w>
א</w>
ɸ</w>
ủ</w>
¢</w>
ō
÷</w>
க
愛</w>
ゼ
т
三
क
̌</w>
⊗</w>
田
る</w>
新</w>
憲</w>
В</w>
ं
Β</w>
ग
あ
ὶ</w>
ш
न
攻
Δ
伝
米</w>
小
<
ý</w>
͘</w>
ق
4
無
c</w>
ะ
ց</w>
ხ</w>
श</w>
წ</w>
ï</w>
ǒ</w>
プ</w>
)</w>
う
ộ
ą
D
は
í</w>
С
ニ
말</w>
い</w>
Þ
≠</w>
δ
g
μ
ツ
Ш
ự
ζ
李</w>
ع</w>
♯</w>
õ</w>
ặ
ẵ
C
Þ</w>
法
メ
W</w>
ɔ</w>
ά
ε</w>
ゴ
ū</w>
и
כ
ὐ
o</w>
き
3</w>
ك
‌</w>
н
ा
初
ˠ
ケ
̣</w>
ن
⅞</w>
ア</w>
ἐ
ŷ
σ
バ
z</w>
ỏ
ន
ṟ
ʻ
₦</w>
チ
ÿ
装
ძ</w>
写
ἰ
デ
m
ม
ष</w>
ন</w>
Γ
Ἀ
ù</w>
↦</w>
ք</w>
ز
͍</w>
É</w>
ط
ķ
￥</w>
Ć
房</w>
Ε
冴
束
ŵ
š</w>
ช
ḩ
지
羽
ṭ</w>
್</w>
機
ỳ</w>
ո
ŭ
Ô
ì
ロ</w>
Ø
f</w>
京</w>
畫
見</w>
李
ů
ֵ
ב
ּ</w>
ô
ω
Σ
☉</w>
ղ
（</w>
و
ˀ</w>
р
ё
之
ῖ
ῶ
ʒ
テ
.</w>
呼
ź</w>
त</w>
ู</w>
j</w>
Μ
J
Й
˘</w>
名</w>
γ
千
ּ
ص
思
ड</w>
्</w>
″</w>
Ṣ
̈</w>
ě</w>
氷
て
ḥ</w>
ี</w>
z
ម</w>
ど
j
輝
•</w>
ǔ
ʃ</w>
旦</w>
ל</w>
ש</w>
→</w>
の
特
個</w>
ւ
ṃ
ο</w>
ɨ
ó
張</w>
ʰ</w>
ข
ñ</w>
ń</w>
邪</w>
e
፡</w>
͡</w>
た
ن</w>
–</w>
ו
凪</w>
'</w>
－</w>
ŏ
⟨</w>
δ</w>
‐</w>
พ
マ</w>
上</w>
芝</w>
ῷ</w>
め
肖
ě
，</w>
レ
张</w>
隊</w>
ֶ
皮</w>
キ
θ
一
ν
Œ
剣
h
ष
È</w>
ː</w>
ê
م</w>
η
ʔ</w>
「</w>
ی</w>
ギ
û</w>
ณ
ƒ</w>
్</w>
Ñ
්</w>
Ọ</w>
ท
Ἰ
ক
ل
เ
る
ə
金</w>
բ</w>
Г</w>
à
ų</w>
ة</w>
§</w>
Æ
す
յ
T
ǂ</w>
̍</w>
ر
ב</w>
ṇ</w>
Ç
인
♪</w>
回
w
்</w>
ë</w>
a
ḷ</w>
έ
È
緑</w>
ζ</w>
˞</w>
シ
Ü
ő
á
王</w>
ท</w>
姉
թ
ẫ
ř</w>
せ
ú</w>
パ
君
Č</w>
th
the</w>
in
an
ed</w>
er
re
ar
ti
er</w>
on
en
and</w>
of</w>
or
on</w>
ing</w>
in</w>
ou
to</w>
as</w>
al
it
st
at
es</w>
ro
hi
he</w>
ac
si
al</w>
at</w>
an</w>
el
ri
or</w>
un
st</w>
ec
was</w>
om
il
ur
am
en</w>
li
di
ea
ly</w>
tion</w>
The</w>
ol
ic
la
le</w>
is</w>
em
ha
ra
es
's</w>
that</w>
ith</w>
for</w>
lo
ve</w>
is
by</w>
ir
with</w>
ent</w>
be
ev
ch</w>
ch
su
con
ts</w>
ere</w>
ag
po
as
ce</w>
ers</w>
de
19
his</w>
pro
ad
ted</w>
bu
th</w>
for
oun
gh
ov
com
wh
ow
unk
rom</w>
the
se</w>
unk></w>
<unk></w>
ex
ter</w>
from</w>
tion
ab
op
it</w>
sp
le
vi
ap
sh
ation</w>
20
whi
no
ay</w>
se
were</w>
ter
ds</w>
ther</w>
im
oo
tr
qu
ate</w>
du
pre
ded</w>
ated</w>
ding</w>
ul
ff
sed</w>
per
tw
de</w>
ne
lu
ity</w>
ta
had</w>
ld</w>
ing
ame</w>
rec
ru
ear
ma
In</w>
par
mo
ci
ir</w>
which</w>
ep
one</w>
ber</w>
all</w>
are</w>
be</w>
tur
ally</w>
ge</w>
out</w>
gh</w>
gu
so</w>
lea
au
fir
ver
ght</w>
fi
St
um
inc
its</w>
tions</w>
tim
ong</w>
son</w>
pl
ary</w>
sc
man
et
por
ke</w>
but</w>
et</w>
ar</w>
sion</w>
ine</w>
der</w>
rou
est</w>
att
oc
wor
bo
est
not</w>
ould</w>
ent
Th
ies</w>
ser
led</w>
fter</w>
her</w>
der
200
ran
ard</w>
to
first</w>
own</w>
their</w>
Ch
ore</w>
also</w>
tic
pla
ni
pu
00</w>
our
sa
ment</w>
ali
age</w>
shi
fe
ting</w>
gi
ound</w>
te</w>
have</w>
el</w>
ack</w>
duc
ks</w>
ome</w>
cont
ved</w>
low
two</w>
who</w>
ess</w>
bec
comp
been</w>
ence</w>
has</w>
ei
other</w>
sec
ear</w>
mu
ig
ater</w>
ents</w>
this</w>
uring</w>
201
tive</w>
over
ss</w>
ely</w>
co
mil
our</w>
sh</w>
Al
king</w>
ous</w>
He</w>
ons</w>
id
ember</w>
ren
ned</w>
time</w>
stor
form
id</w>
they</w>
ant</w>
fin
us</w>
comm
min
me
pri
In
inclu
land</w>
18
ell</w>
ay
ty</w>
after</w>
us
av
tra
Mar
ree</w>
sig
ace</w>
str
would</w>
able</w>
tional</w>
ite</w>
ho
fil
pe
ten
een</w>
into</w>
ain
over</w>
ric
ance</w>
pres
ked</w>
It</w>
way</w>
ft</w>
wi
res</w>
ever</w>
man</w>
ates</w>
more</w>
rit
ited</w>
og
ca
char
play
cri
inter
up</w>
ic</w>
spec
ans</w>
sur
eral</w>
tic</w>
ese</w>
Au
Ne
ough</w>
ade</w>
mer
An
off
mar
lan
ey</w>
les</w>
als</w>
Ro
pa
most</w>
ed
ond</w>
lar
when</w>
dec
ings</w>
him</w>
she</w>
tu
Ar
sel
ice</w>
only</w>
fu
ning</w>
ined</w>
cen
ses</w>
gen
cre
ship</w>
ces</w>
ps</w>
bli
ving</w>
during</w>
na
so
ton</w>
ong
col
re</w>
than</w>
pp
ee
sev
ber
ach
sea
ears</w>
ern</w>
tween</w>
any</w>
Jo
ad</w>
stru
199
ties</w>
tor
loc
sy
about</w>
while</w>
old</w>
pi
game</w>
sti
fore</w>
mon
ach</w>
Un
between</w>
um</w>
app
later</w>
new</w>
three</w>
ins</w>
all
En
cc
ating</w>
throu
cla
num
do
ari
fol
ph
gra
coun
produc
relea
ial</w>
gre
hea
ook</w>
end</w>
Bri
ves</w>
des
ew
ill</w>
Amer
fa
go
ff</w>
sing</w>
Americ
where</w>
eb
are
day</w>
On</w>
used</w>
000</w>
beg
nor
atur
and
though</w>
ist
ble</w>
tri
made</w>
eg
sub
hel
ten</w>
ical</w>
kn
ement</w>
film</w>
enti
war
recor
evel
ess
mov
bas
ry</w>
ations</w>
ang
ia</w>
such</w>
buil
red</w>
ood</w>
season</w>
outh</w>
Com
emp
before</w>
ture</w>
dy</w>
struc
Par
writ
ver</w>
tro
ssi
ames</w>
Wh
iso
some</w>
eam</w>
year</w>
chi
This</w>
ob
ling</w>
can</w>
Nor
eng
row
cu
albu
ying</w>
ily</w>
publi
Li
ect</w>
ced</w>
them</w>
years</w>
owever</w>
am</w>
well</w>
New</w>
te
then</w>
follow
mat
poin
side</w>
cap
being</w>
ected</w>
many</w>
ste
arri
low</w>
ainst</w>
through</w>
episo
dis
second</w>
sic</w>
mis
ann
with
against</w>
mp
Con
star
inv
ters</w>
fic
charac
cal
part</w>
my</w>
tly</w>
posi
album</w>
became</w>
Ju
conc
ince</w>
sho
end
ms</w>
fe</w>
Bo
song</w>
10</w>
bel
including</w>
consi
tiv
sing
number</w>
tor</w>
dre
no</w>
stu
there</w>
fac
sts</w>
acc
fer
ors</w>
both</w>
United</w>
ause</w>
shed</w>
sch
series</w>
After</w>
ain</w>
air
ays</w>
sid
dic
ls</w>
ju
line</w>
lin
ale</w>
Joh
198
lion</w>
lar</w>
sup
il</w>
devel
ward</w>
ak
ne</w>
reas
contin
194
sm
four</w>
direc
iz
sk
yp
under</w>
succ
Eng
sul
episode</w>
team</w>
orig
gr
said</w>
port</w>
peri
jo
ll</w>
emb
bor
bri
ort</w>
recei
rema
diff
mi
ose</w>
inf
several</w>
win
work</w>
ut
serv
known</w>
poli
Wor
overn
ack
Wil
did</w>
American</w>
try</w>
tish</w>
could</w>
nam
exp
desig
bi
continu
tran
bro
ast
pas
tre
tle</w>
Ger
ore
high
Di
od</w>
develop
ner</w>
197
began</w>
retur
ley</w>
self</w>
til</w>
196
ron
soci
Col
ered</w>
early</w>
ish</w>
ople</w>
story</w>
sol
like</w>
ish
released</w>
ven
ant
ory</w>
20</w>
origin
clo
up
As</w>
ised</w>
until</w>
ns</w>
me</w>
called</w>
comple
Gre
back</w>
ork</w>
tel
Oc
Car
tical</w>
ept
Sh
uni
des</w>
do</w>
ini
descri
pr
cur
ining</w>
Mo
vers
tain</w>
fam
ery</w>
grou
ath</w>
ful</w>
bed</w>
offic
ection</w>
gg
oper
une</w>
dered</w>
sted</w>
0s</w>
trac
dge</w>
ouse</w>
gue</w>
vo
million</w>
dist
ou</w>
ool</w>
British</w>
ous
ge
these</w>
plac
use</w>
pow
off</w>
del
ga
set</w>
om</w>
found</w>
ler</w>
bre
30</w>
ef
She</w>
eld</w>
view
dep
music</w>
anc
each</w>
Na
now</w>
dition</w>
Sept
September</w>
cha
Augu
50</w>
took</w>
requ
same</w>
state</w>
people</w>
because</w>
ster</w>
States</w>
eal
wee
Ma
don</w>
At</w>
Austr
Ri
sive</w>
os</w>
17
around</w>
sions</w>
resul
cam
ast</w>
may</w>
12</w>
aw
appear
ey
15</w>
outh
Po
form</w>
ane</w>
org
batt
Fran
govern
bl
Sp
formed</w>
olog
bur
son
out
ature</w>
following</w>
thir
ly
dra
eff
long</w>
However</w>
Nov
city</w>
Su
Australi
ards</w>
down</w>
August</w>
received</w>
World</w>
arly</w>
along</w>
stem</w>
Octo
October</w>
divi
anu
lation</w>
Uni
John</w>
tury</w>
Hi
national</w>
cor
May</w>
ther
disc
provi
km</w>
ple</w>
place</w>
five</w>
Ad
Bu
ext</w>
area</w>
inten
Dec
They</w>
appro
ew</w>
ately</w>
spon
car
maj
kil
ened</w>
ven</w>
II</w>
century</w>
ue</w>
band</w>
men</w>
June</w>
high</w>
ented</w>
ian</w>
reg
very</w>
ful
ome
contro
fied</w>
tics</w>
under
July</w>
adv
show</w>
sion
ders</w>
loo
Chri
def
November</w>
clu
vari
cau
cra
ility</w>
az
what</w>
since</w>
Can
run
195
stri
Re
ead</w>
single</w>
Pre
ged</w>
inst
193
med</w>
Apri
Pro
April</w>
Mu
dem
deci
ording</w>
popu
lish</w>
lit
sequ
11</w>
ams</w>
east</w>
lim
US</w>
Eu
ently</w>
ants</w>
hal
vil
War</w>
March</w>
sen
will</w>
Gu
posed</w>
less</w>
Mc
ross</w>
large</w>
even</w>
due</w>
position</w>
thing</w>
ought</w>
rela
Coun
tt
fun
ended</w>
per</w>
York</w>
ick
left</w>
tow
During</w>
ken</w>
medi
Indi
if</w>
ina</w>
fri
differ
played</w>
cy</w>
Har
life</w>
December</w>
No
ech
ches</w>
moved</w>
port
much</w>
increas
ys</w>
18</w>
..
14</w>
another</w>
Bar
ill
Co
included</w>
war</w>
west</w>
entu
rote</w>
den</w>
ens</w>
group</w>
Janu
January</w>
25</w>
based</w>
wrote</w>
name</w>
ships</w>
Ge
final</w>
system</w>
16</w>
ired</w>
yed</w>
Is
respon
ths</w>
third</w>
cer
ements</w>
won</w>
character</w>
her
ure</w>
ales</w>
lic
When</w>
ects</w>
Be
typ
larg
Mic
zed</w>
ker</w>
light</w>
ported</w>
times</w>
13</w>
ise</w>
Jap
gener
ball</w>
named</w>
government</w>
previ
North</w>
vic
north
sis</w>
leg
cul
For
dio</w>
Qu
cas
of
Sch
just</w>
described</w>
family</w>
eight</w>
play</w>
ring</w>
species</w>
cour
La
...</w>
met
home</w>
De
evi
late</w>
Ra
ick</w>
dam
omin
field</w>
head</w>
sta
built</w>
Euro
deo</w>
issu
beli
last</w>
Mon
world</w>
har
ored</w>
ck</w>
ampi
South</w>
near</w>
ments</w>
fur
ign</w>
organ
attemp
Da
six</w>
act</w>
ney</w>
view</w>
versity</w>
pe</w>
esp
kes</w>
Chi
ached</w>
ass
games</w>
wea
Le
those</w>
ze</w>
make</w>
cal</w>
ages</w>
phi
Willi
ebru
ched</w>
plan
some
17</w>
ems</w>
aged</w>
ening</w>
main</w>
chan
pos
ebruary</w>
February</w>
't</w>
rev
pur
allow
Ho
still</w>
dro
fl
scen
water</w>
can
next</w>
record</w>
original</w>
tici
Gen
days</w>
ets</w>
held</w>
regi
Char
Cor
served</w>
north</w>
ghts</w>
mer</w>
dri
ell
best</w>
forman
thers</w>
ety</w>
prot
stitu
rac
By</w>
ject</w>
tal</w>
ats</w>
ism</w>
ash
S.</w>
ef</w>
rench</w>
Ac
town</w>
within</w>
placed</w>
ribu
equ
ind</w>
small</w>
16
construc
although</w>
memb
major</w>
iled</w>
south
ire</w>
val
sw
trans
His</w>
ped</w>
stan
tively</w>
read
them
ously</w>
Man
again</w>
estab
proc
fel
death</w>
initi
French</w>
ram
match</w>
continued</w>
German</w>
sure</w>
bert</w>
former</w>
atu
role</w>
100</w>
ital</w>
National</w>
wom
ality</w>
2010</w>
ie</w>
There</w>
release</w>
ines</w>
version</w>
auth
however</w>
get</w>
power</w>
ban
simil
arti
ford</w>
ences</w>
performan
video</w>
mag
sident</w>
hy
members</w>
tes</w>
you</w>
21</w>
hum
Pe
wards</w>
24</w>
hor
top</w>
success
ros
yal</w>
take</w>
track</w>
right</w>
exc
often</w>
came</w>
pical</w>
half</w>
itary</w>
ongs</w>
south</w>
Ser
2008</w>
player</w>
2009</w>
ept</w>
show
chang
Whi
Ed
how</w>
aff
40</w>
exten
public</w>
possi
wat
enn
ual</w>
2011</w>
19</w>
win</w>
book</w>
ony</w>
Lon
22</w>
using</w>
Lea
considered</w>
England</w>
house</w>
ili
point</w>
storm</w>
new
Cen
died</w>
production</w>
Per
signed</w>
ested</w>
foo
estern</w>
ration</w>
chil
having</w>
further</w>
school</w>
El
stre
els</w>
cial</w>
ished</w>
vis
hol
anim
stro
Geor
ington</w>
we</w>
centr
One</w>
ator</w>
reli
2007</w>
Se
den
few</w>
im</w>
went</w>
care
craft</w>
disp
tin</w>
cot
sha
without</w>
local</w>
Although</w>
ground</w>
dow
partic
tter</w>
cl
fron
City</w>
ges</w>
claim
Or
different</w>
pol
written</w>
order</w>
Lo
become</w>
ba
elec
Vi
yle</w>
tered</w>
vision</w>
support</w>
tors</w>
op</w>
co</w>
Min
English</w>
Acc
ra</w>
among</w>
sugg
2012</w>
establi
London</w>
invol
ana</w>
period</w>
influ
ek</w>
urch</w>
Inter
Ang
announ
rown</w>
road</w>
For</w>
bar
arm
ones</w>
cy
repres
ound
U.
squ
tained</w>
23</w>
ta</w>
given</w>
company</w>
10
Tim
defe
27</w>
ental</w>
refer
lev
go</w>
ours</w>
action</w>
fre
building</w>
ops</w>
gave</w>
lands</w>
ani
published</w>
ock</w>
Pri
ron</w>
atures</w>
cou
King</w>
While</w>
Mil
returned</w>
University</w>
father</w>
sum
Me
produced</w>
Sta
change</w>
dren</w>
attack</w>
ult</w>
fic</w>
tal
face</w>
part
him
air</w>
ham</w>
exam
28</w>
Ex
190
eved</w>
ak</w>
main
art</w>
stated</w>
pra
U.S.</w>
lead</w>
ology</w>
sent</w>
All</w>
ide
ket</w>
mor
Ca
West</w>
youn
comb
Lu
cop
lost</w>
26</w>
Du
force</w>
person
night</w>
Batt
imp
xim
overed</w>
River</w>
Af
So
include</w>
Ric
pped</w>
cast</w>
pat
recorded</w>
making</w>
sci
body</w>
fire</w>
heav
evision</w>
Sy
ways</w>
board</w>
agre
bir
2006</w>
similar</w>
ditional</w>
Her
site</w>
Bl
Phi
forces</w>
ghout</w>
Bra
15
ici
mit
never</w>
According</w>
country</w>
Scot
suff
gun
short</w>
ounded</w>
tory</w>
away</w>
ority</w>
Stre
br
onom
cel
moder
These</w>
Fi
abo
aircraft</w>
ably</w>
duced</w>
nific
himself</w>
As
bs</w>
ist</w>
men
range</w>
sian</w>
mul
ounds</w>
scri
attac
fore
ampion
military</w>
songs</w>
inci
club</w>
destro
career</w>
run</w>
Australia</w>
total</w>
developed</w>
Cam
Hen
sit
din
intro
quar
review
29</w>
ending</w>
nov
2013</w>
history</w>
import
ness</w>
ogra
sia</w>
service</w>
sour
urric
Fin
sear
ests</w>
alls</w>
Ber
nec
hear
rest</w>
carri
ail
sons</w>
ve
histor
Sec
dom</w>
eu
race</w>
fes
ghter</w>
remained</w>
children</w>
Tw
ol</w>
anese</w>
ger</w>
control</w>
sting</w>
fav
week</w>
development</w>
ends</w>
sin
ars</w>
James</w>
months</w>
result</w>
performance</w>
assi
dies</w>
title</w>
located</w>
Army</w>
pul
cent</w>
dent</w>
coll
come</w>
characters</w>
Rom
na</w>
ubli
General</w>
taken</w>
previous</w>
aver
State</w>
189
hard</w>
ston</w>
William</w>
concer
hou
tem
ock
signific
rent</w>
Mi
lay
Pr
felt</w>
Rus
vol
seen</w>
ially</w>
across</w>
tropical</w>
da</w>
east
Davi
tation</w>
reported</w>
Am
promo
ori
vir
League</w>
lat
mas
campa
ics</w>
writing</w>
cir
ck
unity</w>
To
entually</w>
At
good</w>
appeared</w>
stat
class</w>
announced</w>
tis
spo
tan
noted</w>
60</w>
reached</w>
trav
depend
ering</w>
Ab
cat
ke
wan
ll
ability</w>
Division</w>
sical</w>
marri
pea
usu
created</w>
America</w>
The
member</w>
ecu
experi
areas</w>
spe
Mor
Ni
fle
television</w>
performed</w>
see</w>
Fl
lies</w>
return</w>
political</w>
Japanese</w>
lege</w>
Rec
ine
followed</w>
County</w>
bridge</w>
urricane</w>
too</w>
should</w>
great</w>
doc
date</w>
ada</w>
Bro
Rep
Nav
rest
speci
organiz
row</w>
mm</w>
players</w>
2005</w>
val</w>
mission</w>
saw</w>
Hol
iting</w>
Cap
ative</w>
appoin
stry</w>
tech
With</w>
Street</w>
George</w>
Ru
ws</w>
design</w>
gran
full</w>
13
stage</w>
killed</w>
seven</w>
Bi
ever
points</w>
various</w>
four
hon
2014</w>
lied</w>
que</w>
throughout</w>
int</w>
toge
put</w>
wide</w>
ean</w>
os
Park</w>
BC</w>
lot</w>
together</w>
style</w>
fla
Bur
hom
little</w>
prob
becom
fem
Sm
tice</w>
miles</w>
established</w>
scrip
thre
level</w>
live</w>
bom
formation</w>
earli
Micha
enced</w>
ot</w>
started</w>
hind</w>
ularly</w>
cru
impro
mi</w>
voc
ati
ark</w>
thought</w>
idd
Sw
Australian</w>
strong</w>
wood</w>
ute</w>
ur</w>
Thom
common</w>
route</w>
women</w>
success</w>
comman
tball</w>
caused</w>
ses
gin
nal</w>
compar
dings</w>
Ham
Road</w>
han
ticip
addition</w>
lines</w>
Si
ming</w>
eventually</w>
decided</w>
ester</w>
Comp
eve</w>
wa
once</w>
born</w>
sold</w>
manag
minist
case</w>
battle</w>
front</w>
feet</w>
opened</w>
added</w>
features</w>
ution</w>
Afric
emy</w>
pit
Hu
indu
white</w>
successful</w>
Wal
Squ
tru
boo
tains</w>
bil
he
non</w>
respec
long
termin
occu
ph</w>
aci
instead</w>
works</w>
inning</w>
ink</w>
lowing</w>
phy</w>
rought</w>
David</w>
nel</w>
Fol
lay</w>
construction</w>
lear
mem
Cre
Sha
ampionship</w>
general</w>
completed</w>
law</w>
af
possible</w>
ago</w>
playing</w>
ators</w>
moun
estim
Mad
Mal
worked</w>
section</w>
fully</w>
does</w>
population</w>
station</w>
important</w>
hun
Bel
popular</w>
utes</w>
identi
clea
set
dian</w>
188
tain
leading</w>
rather</w>
bal
survi
others</w>
pression</w>
behind</w>
tial</w>
oli
ingdom</w>
compe
mater
present</w>
House</w>
ry
forced</w>
guns</w>
Royal</w>
ligh
200</w>
dividu
nia</w>
ai
fif
sible</w>
prac
tour</w>
via</w>
Michael</w>
2004</w>
upon</w>
East</w>
eting</w>
either</w>
classi
scre
ensive</w>
close</w>
wid
campaign</w>
gun</w>
Ear
dou
party</w>
France</w>
subsequ
diffic
tioned</w>
separ
heavy</w>
joined</w>
clear</w>
weeks</w>
atured</w>
nomin
associ
relation
originally</w>
scored</w>
Tra
scene</w>
Gi
31</w>
2015</w>
mix
almost</w>
ices</w>
black</w>
damage</w>
argu
allowed</w>
pen
spor
every</w>
pain
alist</w>
phy
loy
Henry</w>
working</w>
provided</w>
arch
ready</w>
ord</w>
laun
move</w>
Brit
14
mother</w>
fourth</w>
Cha
tures</w>
To</w>
table</w>
young</w>
Wash
tou
wanted</w>
ech</w>
od
effor
tured</w>
lower</w>
Best</w>
avail
ole</w>
ically</w>
brought</w>
event</w>
bers</w>
sett
contrac
occur
pil
ow</w>
cle</w>
featured</w>
individu
dents</w>
You</w>
least</w>
sional</w>
500</w>
rel
dev
Some</w>
villa
piec
wife</w>
era</w>
tar
average</w>
list</w>
Desp
econom
cros
towards</w>
stra
sses</w>
lik
help</w>
equi
critics</w>
gy</w>
runs</w>
70</w>
ealth</w>
exist
soon</w>
ching</w>
ang</w>
busin
Vir
azine</w>
ditions</w>
foc
designed</w>
rul
region</w>
cil</w>
Robert</w>
nu
claimed</w>
example</w>
recog
An</w>
inj
hit</w>
dru
troops</w>
finished</w>
Washington</w>
ols</w>
forms</w>
modern</w>
shor
search</w>
ners</w>
ective</w>
sla
Despite</w>
Air</w>
army</w>
western</w>
Gra
adron</w>
let</w>
generally</w>
achi
Stu
Europe
ports</w>
start</w>
passed</w>
r.</w>
ret
John
conclu
Europe</w>
On
80</w>
pho
met</w>
ential</w>
duce</w>
office</w>
mph</w>
Hun
whe
shot</w>
sea</w>
eastern</w>
believed</w>
School</w>
execu
Mer
broad
em</w>
open</w>
Following</w>
esti
Cla
parts</w>
tives</w>
eep</w>
2003</w>
ular</w>
aching</w>
186
Cali
Pal
stand
particip
leng
TV</w>
Christi
replaced</w>
gan</w>
events</w>
victory</w>
press</w>
ior</w>
deli
oms</w>
del</w>
available</w>
kers</w>
conduc
indic
Gar
ances</w>
tee</w>
ovi
Cour
ological</w>
insp
super
hours</w>
back
bility</w>
ath
involved</w>
Japan</w>
Tur
project</w>
pper</w>
President</w>
Fir
draw
opening</w>
turned</w>
Win
round</w>
fall</w>
Fre
tit
enth</w>
room</w>
island</w>
saying</w>
rock</w>
Two</w>
grow
rict</w>
Por
bit
ka</w>
European</w>
ata</w>
ries</w>
official</w>
mea
Em
flo
gram</w>
free</w>
mid</w>
aul</w>
ris
taking</w>
evid
Sen
tural</w>
minutes</w>
appearance</w>
erous</w>
gs</w>
ah</w>
largest</w>
going</w>
ained</w>
significant</w>
Rou
writer</w>
crew</w>
ount</w>
serve</w>
contribu
verse</w>
uses</w>
Republi
highest</w>
aly
earlier</w>
ils</w>
initially</w>
particularly</w>
Music</w>
far</w>
commer
competi
Pi
evol
asked</w>
Fil
nar
type</w>
Lou
atic</w>
car</w>
Bal
highway</w>
training</w>
Cup</w>
ner
gular</w>
fication</w>
Vic
ran</w>
resid
ope</w>
2000</w>
command</w>
process</w>
special</w>
my
Comm
month</w>
gar
expan
educ
ric</w>
gradu
expla
tionally</w>
sem
2001</w>
Navy</w>
Charles</w>
tries</w>
Mat
Mac
director</w>
studio</w>
refu
Battle</w>
War
love</w>
praised</w>
Jer
southern</w>
increased</w>
court</w>
From</w>
Thomas</w>
sil
fo
prepar
Mag
dau
any
langu
ma</w>
Val
Sa
units</w>
structure</w>
pressed</w>
Bas
iddle</w>
bes</w>
ament</w>
star</w>
Kingdom</w>
Tri
twork</w>
ordered</w>
35</w>
alling</w>
lac
friend</w>
hurricane</w>
religi
church</w>
First</w>
goal</w>
immedi
US
nee
les
187
ton
antry</w>
High
Canada</w>
Califor
audi
No.</w>
conv
ination</w>
viol
1st</w>
relationship</w>
San</w>
commit
2002</w>
sym
key</w>
Cl
usually</w>
wal
colla
league</w>
supp
bat
acqu
human</w>
Christ
simp
Jack
base</w>
chart</w>
ben
northern</w>
Angel
Paul</w>
independ
winds</w>
Ben
Other</w>
must</w>
told</w>
positive</w>
down
don
California</w>
dr
cover</w>
better</w>
enough</w>
conn
sound</w>
defin
desp
vil</w>
spent</w>
pass
sal
appointed</w>
guit
North
ury</w>
ories</w>
Sing
above</w>
syn
Atlan
anish</w>
feder
outside</w>
natur
quick
drew</w>
Tro
thy</w>
nine</w>
central</w>
Dis
ping</w>
turn</w>
real</w>
jour
previously</w>
attempt</w>
post</w>
films</w>
acy</w>
South
tically</w>
Sal
find</w>
accoun
ference</w>
directed</w>
teen</w>
standing</w>
failed</w>
ama</w>
Wi
ized</w>
required</w>
here</w>
iment</w>
Associ
sey</w>
Award</w>
Union</w>
reng
active</w>
rate</w>
Centr
elements</w>
portra
person</w>
complete</w>
90</w>
alion</w>
Company</w>
itself</w>
rated</w>
shing</w>
ense</w>
states</w>
aper</w>
plat
Germany</w>
despite</w>
give</w>
secon
interest</w>
Go
Great</w>
reviews</w>
rd</w>
groups</w>
hand</w>
recording</w>
entire</w>
ld
gir
45</w>
according</w>
priv
eigh
tivity</w>
lie</w>
Hor
dium</w>
India</w>
Times</w>
ald</w>
International</w>
Mis
soldi
proper
Harri
figh
introduced</w>
nei
ging</w>
beginning</w>
int
stone</w>
Cu
Cro
Gr
happ
lin</w>
ville</w>
Play
Smith</w>
ious</w>
read</w>
exic
Fo
commis
whose</w>
Sk
streng
Island</w>
mir
stly</w>
Court</w>
term</w>
ref
cations</w>
bloc
stance</w>
Air
idea</w>
Reg
bra
profes
land
issue</w>
UK</w>
ques
entary</w>
partment</w>
jects</w>
cast
Ter
defeated</w>
additional</w>
pic
dy
Hall</w>
Ba
III</w>
whom</w>
Pol
loss</w>
allow</w>
Route</w>
conf
future</w>
review</w>
Sim
We</w>
It
eph
brother</w>
changed</w>
Sovi
paren
changes</w>
election</w>
Mexic
lue</w>
Ver
regar
quickly</w>
bit</w>
cut</w>
techn
evidence</w>
White</w>
ency</w>
already</w>
Indian</w>
Govern
oring</w>
domin
Ban
vers</w>
Peter</w>
frequ
progr
international</w>
shar
Off
orial</w>
lyric
75</w>
size</w>
That</w>
tour
nation</w>
coast</w>
shoo
College</w>
estig
agreed</w>
arrived</w>
know
Cal
onic</w>
estimated</w>
likely</w>
ads</w>
sen</w>
study</w>
Force</w>
ingly</w>
Black</w>
novel</w>
multi
ep</w>
wr
espec
Chin
surface</w>
social</w>
Western</w>
Richard</w>
NY</w>
female</w>
decision</w>
warded</w>
la</w>
ferred</w>
sometimes</w>
ilities</w>
score</w>
football</w>
ban</w>
Church</w>
berg</w>
aries</w>
New
especially</w>
limited</w>
Cong
taining</w>
Britain</w>
magazine</w>
ction</w>
situ
carried</w>
money</w>
St.</w>
eli
program</w>
actu
amed</w>
ee</w>
recogni
accomp
ster
emer
declar
Sev
explo
Most</w>
rup
shows</w>
debut</w>
ials</w>
remaining</w>
rely</w>
listed</w>
scenes</w>
community</w>
inn
fleet</w>
ples</w>
length</w>
gn
becoming</w>
C.</w>
center</w>
speed</w>
larger</w>
cho
yard</w>
venue</w>
bing</w>
nature</w>
word</w>
hop</w>
eption</w>
Shi
entered</w>
arran
plan</w>
mental</w>
musical</w>
reti
related</w>
cli
suggested</w>
married</w>
Championship</w>
Star</w>
break</w>
police</w>
approxim
ania</w>
Cana
Ta
Clu
percent</w>
gam
pressure</w>
aller</w>
business</w>
might</w>
latter</w>
space</w>
sy</w>
daughter</w>
six
Virgin
teams</w>
liter
president</w>
fact</w>
students</w>
Chic
Virginia</w>
bel</w>
summer</w>
1999</w>
native</w>
alter
rights</w>
exper
Im
ergy</w>
appear</w>
bac
porary</w>
ounding</w>
Fe
episodes</w>
Bec
seum</w>
12
Tex
sport</w>
ida</w>
rick</w>
ords</w>
lack</w>
river</w>
rap
winning</w>
cher</w>
regular</w>
destroyed</w>
tracks</w>
docum
adap
leaving</w>
selves</w>
Dem
hold</w>
anti</w>
material</w>
atory</w>
If</w>
ising</w>
suppor
provide</w>
enting</w>
gade</w>
High</w>
Los</w>
head
amm
tom
ind
ress</w>
Pat
course</w>
food</w>
actions</w>
intended</w>
hand
proposed</w>
reveal
enty</w>
territ
staff</w>
sor
certain</w>
Res
Don
dical</w>
avo
Spanish</w>
edit
cle
overall</w>
supported</w>
Her</w>
running</w>
occa
escap
elled</w>
investig
moving</w>
past</w>
onto</w>
nd</w>
tery</w>
ser</w>
pon
esting</w>
edu
viron
ilway</w>
effects</w>
done</w>
purcha
Bill
Oly
ha</w>
woman</w>
pair</w>
deta
sit</w>
nearly</w>
thus</w>
olo
Association</w>
Party</w>
Man</w>
32</w>
yer</w>
ured</w>
Soviet</w>
helped</w>
shire</w>
box</w>
great
awarded</w>
Many</w>
mixed</w>
forming</w>
surr
coming</w>
response</w>
influence</w>
cost</w>
issued</w>
location</w>
wall</w>
Chinese</w>
create</w>
hu
gen</w>
let
Flor
Met
movement</w>
prev
pose</w>
stars</w>
ention</w>
enter
contract</w>
top
Fer
Gol
mean
division</w>
planned</w>
Ken
wil
anti
2nd</w>
Chicago</w>
ano</w>
experience</w>
Red</w>
Jackson</w>
tun
tons</w>
fy</w>
longer</w>
personal</w>
character
Awards</w>
higher</w>
Edward</w>
chester</w>
compared</w>
captured</w>
after
1998</w>
dance</w>
mach
Cri
attrac
bia</w>
forward</w>
probl
fans</w>
approximately</w>
language</w>
mary</w>
lec
living</w>
spea
themselves</w>
producer</w>
Dar
duction</w>
Johnson</w>
Itali
alled</w>
Hill</w>
mostly</w>
antas
ray</w>
Council</w>
manu
arian</w>
Paci
ister</w>
eau
Ev
mur
marked</w>
commercial</w>
ya</w>
da
Billboard</w>
current</w>
Act</w>
leader</w>
administ
pan
fifth</w>
script</w>
scho
positions</w>
remains</w>
radio</w>
fig
Club</w>
ny</w>
burg</w>
appears</w>
eless</w>
cycl
whether</w>
every
operation</w>
research</w>
300</w>
sex
consider
dom
dia</w>
probably</w>
Ci
soldiers</w>
bly</w>
Sar
extended</w>
sources</w>
dram
Tor
tho
eding</w>
chall
pun
Tre
progre
Enter
gl
ret</w>
copies</w>
Kore
accep
Tu
Pacific</w>
unic
esses</w>
media</w>
185
buildings</w>
depic
expected</w>
poor</w>
child</w>
lo</w>
Since</w>
Grand</w>
pon</w>
difficult</w>
really</w>
Alex
natural</w>
resi
feature</w>
suffered</w>
see
entation</w>
temper
No</w>
NA</w>
arm</w>
legal</w>
sic
includes</w>
ood
countries</w>
operations</w>
immediately</w>
gold</w>
sa</w>
effect</w>
Christian</w>
photo
Franc
voice</w>
repe
bran
ower</w>
ades</w>
Ara
Lit
discovered</w>
pop</w>
Wat
sides</w>
Later</w>
vice</w>
1997</w>
edly</w>
quali
Mur
leave</w>
ordin
ids</w>
Ano
removed</w>
officers</w>
Atlantic</w>
increase</w>
ut</w>
Dra
det
Ly
ational</w>
subsequently</w>
oul
tainment</w>
stant</w>
ians</w>
stand</w>
takes</w>
celeb
always</w>
sters</w>
alized</w>
Florida</w>
closed</w>
bury</w>
park</w>
Lake</w>
33</w>
lyrics</w>
damaged</w>
nav
Eli
confir
Pen
Bay</w>
poten
norm
distribu
treat
Another</w>
Day</w>
jected</w>
yards</w>
covered</w>
fell</w>
offered</w>
Queen</w>
plans</w>
Brown</w>
Both</w>
Emp
omet
Texas</w>
deb
something</w>
East
cing</w>
Tru
instru
terms</w>
village</w>
cm</w>
ull</w>
Bor
Roman</w>
Game</w>
problems</w>
majority</w>
canc
ranked</w>
manager</w>
Sam
zz
attacks</w>
blo
Oper
report</w>
irs</w>
China</w>
ishing</w>
did
services</w>
Mary</w>
eth
fight</w>
colon
ham
got</w>
status</w>
test</w>
tel</w>
Bre
cause</w>
ists</w>
ile</w>
Station</w>
raised</w>
elected</w>
minute</w>
ultim
Its</w>
Canadian</w>
adop
meeting</w>
composed</w>
revealed</w>
private</w>
edy</w>
incor
37</w>
direct</w>
conver
clim
Sea</w>
inspired</w>
Maj
Olymp
finan
lived</w>
keep</w>
Center</w>
goals</w>
initial</w>
Squadron</w>
giving</w>
enta
bul
respectively</w>
Lord</w>
contra
attacked</w>
associated</w>
aches</w>
ino</w>
yet</w>
dol
By
Africa</w>
numerous</w>
Victor
needed</w>
professional</w>
onal</w>
lations</w>
Love</w>
floo
Sci
bow
Tran
conven
necess
friends</w>
Russian</w>
launched</w>
lled</w>
environ
ba</w>
sici
Jew
particular</w>
prison
occurred</w>
onna</w>
mitted</w>
constitu
contains</w>
Angeles</w>
Grou
lig
singer</w>
Highway</w>
mel
ume</w>
shown</w>
scienti
constructed</w>
All
critic
distinc
antly</w>
Soci
castle</w>
attempted</w>
vehi
God</w>
Pu
conditions</w>
cred
sun
Inf
AF</w>
flight</w>
36</w>
istic</w>
fer</w>
Hea
tially</w>
pping</w>
ext
Cra
tival</w>
information</w>
earned</w>
perc
near
Mel
Central</w>
alle
premi
1995</w>
St</w>
schedu
critical</w>
tivi
produce</w>
promis
ide</w>
A.</w>
referred</w>
DV
analy
Fri
whole</w>
tt</w>
prior</w>
deal</w>
lam
ight</w>
amount</w>
finally</w>
sop
resulted</w>
smaller</w>
selected</w>
weight</w>
secu
refl
need</w>
discus
Second</w>
stems</w>
makes</w>
fighting</w>
pass</w>
eling</w>
Gal
va</w>
dated</w>
broadcast</w>
archit
actor</w>
defeat</w>
sumed</w>
Gil
piece</w>
princi
largely</w>
issues</w>
popul
Empire</w>
Jack</w>
ologi
individual</w>
portion</w>
1996</w>
acting</w>
rating</w>
assigned</w>
houses</w>
prof
numbers</w>
hour</w>
revol
know</w>
Del
kno
commented</w>
2016</w>
Bow
guitar</w>
artic
books</w>
ror</w>
za</w>
we
Year</w>
interview</w>
industry</w>
level
19th</w>
My</w>
mom
audience</w>
wind</w>
plot</w>
theat
legis
dig
unable</w>
minor</w>
directly</w>
Earth</w>
ox
ki</w>
say</w>
spir
tress</w>
med
refused</w>
spital</w>
fail
newsp
attention</w>
reach</w>
conflic
zing</w>
1994</w>
Ka
loyed</w>
words</w>
Corps</w>
Phili
Sun
primary</w>
But</w>
49</w>
trade</w>
res
sister</w>
die</w>
pre</w>
enjo
vely</w>
male</w>
think</w>
tin
below</w>
declared</w>
sky</w>
mark</w>
FA</w>
quarters</w>
sales</w>
aband
ti</w>
Sup
sex</w>
traditional</w>
there
van</w>
Martin</w>
contem
mass</w>
38</w>
engine
officer</w>
crow
net</w>
lab
hop
depression</w>
upper</w>
employ
Sain
plu
gate</w>
Wel
ro</w>
Nic
Eg
circu
wing</w>
rep
owned</w>
cles</w>
Rob
rat
Hom
Italian</w>
science</w>
Wales</w>
Michi
unit</w>
knowle
acted</w>
subject</w>
stitute</w>
sioned</w>
look</w>
ame
settl
struction</w>
anced</w>
alo
double</w>
oned</w>
Dist
letter</w>
Group</w>
ski</w>
commander</w>
rant</w>
Clar
ands</w>
liament</w>
Cy
power
My
session</w>
religious</w>
Democ
tra</w>
source</w>
J.</w>
pool</w>
Tel
vocals</w>
ara</w>
radi
Several</w>
Mark</w>
promin
determin
model</w>
overs</w>
May
market</w>
Spec
pal
artist</w>
ich</w>
dest</w>
34</w>
standard</w>
strong
design
Michigan</w>
Ori
competition</w>
prov
emo
matches</w>
middle</w>
hood</w>
Carol
continue</w>
rain</w>
Do
pain</w>
energy</w>
titu
Mul
sity</w>
ingu
traff
coura
Congress</w>
za
Hal
Zeal
Ag
48</w>
aded</w>
cases</w>
alty</w>
claim</w>
fiel
ica</w>
education</w>
theme</w>
Big</w>
Minister</w>
antasy</w>
highly</w>
stop</w>
nearby</w>
Ox
writers</w>
records</w>
separate</w>
mark
Gl
iser</w>
DVD</w>
mig
presented</w>
1992</w>
lem</w>
annual</w>
ecting</w>
3rd</w>
attended</w>
cust
Cast
tenant</w>
ssed</w>
incorpor
arms</w>
reduced</w>
Moun
tried</w>
centre</w>
bal</w>
ona</w>
worth</w>
public
keep
access</w>
means</w>
mouth</w>
brea
divided</w>
ateg
levels</w>
Sir</w>
neigh
Pan
activi
47</w>
practice</w>
peak</w>
titled</w>
hip</w>
dea
capital</w>
fru
twenty</w>
Dou
stating</w>
accepted</w>
Mexico</w>
intel
prec
extre
responsible</w>
aging</w>
ots</w>
notes</w>
phic</w>
complex</w>
echan
Time</w>
Team</w>
lightly</w>
African</w>
dges</w>
edition</w>
Madonna</w>
essor</w>
Bir
photogra
movie</w>
sell</w>
io</w>
maxim
build</w>
ght
oods</w>
sign</w>
sely</w>
95</w>
anies</w>
managed</w>
health</w>
Their</w>
names</w>
lined</w>
eeded</w>
ashi
Stan
Haw
wit
ero
Jose
network</w>
nament</w>
pus</w>
effort</w>
Hot</w>
55</w>
41</w>
schools</w>
Han
Ti
Simp
Final</w>
charge</w>
Fle
Scotland</w>
Acad
paid</w>
Chris</w>
resulting</w>
lv
1991</w>
1993</w>
Scott</w>
Jones</w>
dropped</w>
Mas
showed</w>
lit</w>
Department</w>
lock</w>
marriage</w>
depar
economic</w>
college</w>
inside</w>
ills</w>
eutenant</w>
dead</w>
kept</w>
bour
20th</w>
ium</w>
Lan
efforts</w>
allowing</w>
Greek</w>
metal</w>
asp
ga</w>
variety</w>
39</w>
rich</w>
morning</w>
Zealand</w>
llery</w>
Rol
ayed</w>
assa
400</w>
pursu
begins</w>
inches</w>
tac
designated</w>
Infantry</w>
42</w>
cerem
kin
bb
oil</w>
tiz
schol
Old</w>
retary</w>
dd
cyclone</w>
write</w>
ites</w>
deep</w>
continues</w>
pal</w>
combat</w>
Thi
quality</w>
46</w>
tified</w>
coach</w>
peror</w>
ko</w>
Foo
Hel
biogra
dios</w>
performances</w>
inch</w>
habit
ural</w>
Ram
tment</w>
Me</w>
exhi
favor
want</w>
cies</w>
Commit
Three</w>
starting</w>
innings</w>
sus</w>
primar
Fox</w>
Creek</w>
MS</w>
critici
Tour</w>
44</w>
ena</w>
gla
parents</w>
meant</w>
illu
viewers</w>
Kar
di</w>
serving</w>
founded</w>
arity</w>
says</w>
metres</w>
fted</w>
urity</w>
How
conducted</w>
mid
ves
fish</w>
asion</w>
Pa
65</w>
appe
Sil
4th</w>
stic</w>
43</w>
presence</w>
Ko
Steph
direction</w>
ake</w>
Sum
activity</w>
foot</w>
curren
pment</w>
chest
scoring</w>
story
stories</w>
compu
Fore
ere
Bat
law
strugg
pay</w>
Dun
ander</w>
bound</w>
Admir
rer</w>
Ku
demon
We
selling</w>
tionary</w>
transferred</w>
rule</w>
things</w>
Egyp
aturing</w>
5th</w>
replac
Records</w>
enemy</w>
lan</w>
acci
draw</w>
gri
1942</w>
birds</w>
ado</w>
peaked</w>
Arth
web
sequence</w>
Bru
Rock</w>
He
Feder
recomm
concert</w>
amp
becomes</w>
engine</w>
sty</w>
traffic</w>
passing</w>
Ke
dg
ishop</w>
greater</w>
tely</w>
Stone</w>
Lab
concluded</w>
Prince</w>
Hung
sets</w>
kind</w>
emed</w>
Committee</w>
ens
remain</w>
Society</w>
advance</w>
encoun
relatively</w>
cin
Like</w>
exclu
Gir
debu
Colum
culture</w>
primarily</w>
scale</w>
property</w>
hard
observed</w>
opport
potential</w>
plays</w>
chief</w>
actually</w>
Because</w>
ongside</w>
chem
Williams</w>
award</w>
plant</w>
call</w>
mun
fran
preci
Viet
systems</w>
financial</w>
attempts</w>
screen</w>
Harrison</w>
collection</w>
multiple</w>
Tom</w>
deri
featuring</w>
sac
fying</w>
coast
shel
temp
real
animals</w>
faced</w>
Gor
approach</w>
Captain</w>
pha
broke</w>
Sur
missed</w>
doub
cro
Manchester</w>
Latin</w>
flu
seconds</w>
distance</w>
train</w>
rical</w>
Boston</w>
che
join</w>
Before</w>
mechan
passeng
ym
companies</w>
1944</w>
cities</w>
sound
gian</w>
Dut
slightly</w>
independent</w>
Southern</w>
Penn
Battalion</w>
Er
situation</w>
sense</w>
gency</w>
itch
susp
Film</w>
Arthur</w>
anna</w>
dark</w>
identified</w>
torpe
psy
kly</w>
Oxford</w>
royal</w>
collabor
B.</w>
servation</w>
hus
figure</w>
threat
completely</w>
ultimately</w>
Den
cks</w>
job</w>
confirmed</w>
federal</w>
Ital
proved</w>
drawn</w>
flow
ero</w>
cross</w>
maximum</w>
Gri
comes</w>
wel
struck</w>
ty
sought</w>
meaning</w>
Direc
today</w>
64</w>
restor
follow</w>
dic</w>
Sol
chap
specific</w>
kilomet
trial</w>
mainly</w>
mine</w>
explained</w>
desi
ord
combined</w>
BBC</w>
beha
Youn
ratic</w>
minim
ask</w>
wick
pons</w>
author</w>
influenced</w>
Games</w>
acu
Louis</w>
concept</w>
Academy</w>
prevent</w>
ket
powerful</w>
square</w>
society</w>
La</w>
tian</w>
thous
ricul
versi
cient</w>
itted</w>
calling</w>
officials</w>
strial</w>
elev
disea
alongside</w>
armed</w>
1990</w>
acts</w>
oman</w>
ustice</w>
derson</w>
reason</w>
Fur
ky</w>
Cas
gained</w>
85</w>
Yu
1941</w>
reland</w>
ri</w>
Jes
Frank</w>
Series</w>
Pic
resol
eway</w>
Fu
successfully</w>
tric</w>
Kh
Ste
tail</w>
meet</w>
model
cover
nes</w>
ae</w>
prin
Italy</w>
nominated</w>
1945</w>
boat</w>
alone</w>
ried</w>
captain</w>
Americans</w>
encoura
Saint</w>
Bul
widely</w>
recent</w>
Dav
promoted</w>
reaching</w>
easi
beth</w>
Vo
Ob
sylv
strength</w>
eball</w>
neu
Entertainment</w>
nor</w>
goti
bar</w>
sust
stitution</w>
perf
ditionally</w>
artists</w>
Brigade</w>
rence</w>
orities</w>
Publi
'm</w>
account</w>
Doc
naval</w>
tis</w>
organization</w>
orders</w>
winter</w>
cky</w>
Sun</w>
Test</w>
foreign</w>
stein</w>
greatest</w>
ss
electr
Avenue</w>
zes</w>
get
Bla
sli
policy</w>
Wee
your</w>
doing</w>
officially</w>
subsequent</w>
older</w>
shortly</w>
interpre
communic
vey</w>
Ha
core</w>
sixth</w>
Lee</w>
Ireland</w>
Green</w>
Bill</w>
true</w>
expressed</w>
causing</w>
Service</w>
Fort</w>
Paris</w>
Line</w>
roads</w>
glo
blood</w>
twel
Mus
Whit
pel
represented</w>
Bridge</w>
Joseph</w>
rying</w>
jun
bon
Croati
Museum</w>
brary</w>
mol
Il
au</w>
county</w>
ellow</w>
views</w>
gas</w>
Hon
types</w>
Far
battles
dish</w>
lor</w>
organized</w>
invasion</w>
resc
albums</w>
alties</w>
600</w>
tells</w>
1943</w>
ren</w>
weak
Major</w>
theory</w>
laid</w>
eman</w>
world
pieces</w>
ita</w>
aval
SR</w>
believ
tting</w>
weather</w>
content</w>
HL</w>
techni
mess
nown</w>
residents</w>
impact</w>
dedic
Don</w>
affected</w>
Dre
Dev
1989</w>
seasons</w>
Regiment</w>
78</w>
tage</w>
post
negoti
behavi
water
iling</w>
mas</w>
Victoria</w>
Dani
nega
results</w>
eled</w>
pilot</w>
infall</w>
Republic</w>
Str
visit</w>
Dr.</w>
bodies</w>
figu
perial</w>
versions</w>
focus</w>
gation</w>
're</w>
AA</w>
dows</w>
boy</w>
sty
Roo
physical</w>
Wol
ahead</w>
German
dary</w>
thin</w>
aired</w>
Ven
Star
Ath
ass</w>
Tow
News</w>
fired</w>
aware</w>
ape</w>
advant
Little</w>
weapons</w>
usual</w>
heart</w>
saur
pes</w>
west
Throu
heavily</w>
itable</w>
olic</w>
ac</w>
sel</w>
gets</w>
surpri
Stephen</w>
difficul
Upon</w>
ax
oul</w>
gia</w>
district</w>
Histor
kg</w>
ris</w>
growth</w>
share</w>
birth</w>
student</w>
viewed</w>
feel</w>
leaders</w>
horse</w>
artillery</w>
oured</w>
ues</w>
debuted</w>
appearances</w>
ancing</w>
ization</w>
isation</w>
executive</w>
rein
Cath
organ</w>
prominent</w>
agreement</w>
consisted</w>
nic
brief
1940</w>
tations</w>
spring</w>
mile</w>
West
border</w>
begin</w>
beat</w>
care</w>
Valley</w>
rin
program
defense</w>
necessary</w>
Ry
argued</w>
evolution</w>
capture</w>
Parliament</w>
actors</w>
ises</w>
image</w>
marine</w>
ani</w>
figures</w>
opposed</w>
180
sylvania</w>
injury</w>
Chief</w>
patter
nes
bring</w>
soli
returning</w>
tual</w>
Though</w>
Je
studies</w>
52</w>
rise</w>
ete</w>
stop
claims</w>
lights</w>
rish</w>
equipment</w>
1980s</w>
itation</w>
Fa
Jim</w>
contemporary</w>
blue</w>
Rog
ulf</w>
acity</w>
effective</w>
dang
husband</w>
develop</w>
Kel
And</w>
rey</w>
M.</w>
setting</w>
occup
Over</w>
modi
floor</w>
76</w>
maintained</w>
Spi
Sel
Mass
matter</w>
aylor</w>
visited</w>
Spr
deter
150</w>
tax
deg
7th</w>
travel</w>
Cross</w>
fast</w>
criticized</w>
emic</w>
ides</w>
categ
expe
grew</w>
camp</w>
Boo
51</w>
stations</w>
osen</w>
Fleet</w>
compos
Dutch</w>
toward</w>
heard</w>
ami</w>
couple</w>
strated</w>
Bob</w>
Lar
expl
ricket</w>
ok
quarter</w>
citiz
1970s</w>
agon
nin
itz
except</w>
passes</w>
operated</w>
Life</w>
sures</w>
machine</w>
trying</w>
Homer</w>
worldwide</w>
reference</w>
singles</w>
ene</w>
alists</w>
Hurricane</w>
Care
1960s</w>
territory</w>
trees</w>
tol
medical</w>
avoid</w>
Tom
load</w>
ash</w>
shes</w>
alism</w>
IV</w>
tournament</w>
sively</w>
conflict</w>
leaves</w>
Vol
Football</w>
tia</w>
Carolina</w>
rative</w>
ores</w>
historian</w>
thu
speech</w>
earing</w>
Scottish</w>
hands</w>
looking</w>
predic
news</w>
mond</w>
empha
slow</w>
eye</w>
university</w>
therefore</w>
Northern</w>
chosen</w>
rainfall</w>
inger</w>
iss
meth
value</w>
dow</w>
54</w>
ette</w>
ockey</w>
twice</w>
frequently</w>
girl</w>
Ty
treatment</w>
ingham</w>
challeng
ois</w>
lis</w>
bus</w>
walls</w>
stood</w>
offer</w>
icient</w>
addre
guest</w>
championship</w>
District</w>
propos
consecu
ancy</w>
civil
bot
Studios</w>
Austri
fort</w>
losing</w>
sports</w>
sphere</w>
casu
Colon
typically</w>
1987</w>
enters</w>
Duke</w>
Bey
reports</w>
follows</w>
Fes
1988</w>
mind</w>
problem</w>
requi
Polish</w>
journ
wounded</w>
oes</w>
ambi
insul
serves</w>
Op
elim
179
surrounding</w>
lice</w>
contained</w>
embly</w>
Hav
sam
big</w>
Lin
6th</w>
herself</w>
Hum
senior</w>
degree</w>
activities</w>
soundtrack</w>
San
mes</w>
workers</w>
sle
offensive</w>
grand
NA
governor</w>
mit</w>
56</w>
til
adver
manufac
rit</w>
aggre
enge</w>
sign
gin</w>
plea
simply</w>
thro
dership</w>
losop
Fantasy</w>
Admiral</w>
lives</w>
house
Ki
supply</w>
regarded</w>
fellow</w>
tled</w>
horses</w>
turns</w>
opini
com</w>
heads</w>
ert</w>
Super</w>
consecutive</w>
chor
Bon
unknown</w>
chose</w>
ai</w>
qui
Mont
Christmas</w>
eyes</w>
bud
athle
cannot</w>
aga</w>
vote</w>
Under</w>
Eliza
Each</w>
Allied</w>
saf
escape</w>
IS
nit
Eastern</w>
authority</w>
Sul
participated</w>
experim
Senate</w>
Lad
growing</w>
aker</w>
nothing</w>
website</w>
railway</w>
ghly</w>
attribu
Taylor</w>
Governor</w>
Brad
Ale
severe</w>
mentioned</w>
Catholic</w>
communi
53</w>
host</w>
billion</w>
broken</w>
producers</w>
northeast</w>
door</w>
newly</w>
fiction</w>
airs</w>
adopted</w>
commissioned</w>
musici
inson</w>
advanced</w>
func
Hear
Alexander</w>
Cru
thick</w>
kill</w>
grade</w>
igg
cs</w>
spi
tom</w>
holds</w>
oppon
Dy
Wilson</w>
Bran
fra
ody</w>
ison</w>
Government</w>
green</w>
boats</w>
famous</w>
capacity</w>
promp
Stor
Festival</w>
pied</w>
Joe</w>
serious</w>
seg
insi
increasing</w>
inner</w>
basis</w>
ate
ilies</w>
newspaper</w>
antine</w>
1986</w>
collap
squadron</w>
Rho
Kenne
symbo
abandoned</w>
filming</w>
bill</w>
hi</w>
nie</w>
overy</w>
committee</w>
imag
drive</w>
filmed</w>
alli
gues</w>
perform</w>
opposition</w>
background</w>
leg</w>
Som
Pennsylvania</w>
risk</w>
list
flying</w>
creating</w>
bey
Hou
circ
ota</w>
Young</w>
WW
franchi
RA
von</w>
lap</w>
deliver
tower</w>
restric
66</w>
Islands</w>
tree</w>
rement</w>
possibly</w>
contrast</w>
roman
street</w>
kin</w>
Que
individuals</w>
dar
Des
iss</w>
ession</w>
Cur
Mean
Mr.</w>
landing</w>
sites</w>
plants</w>
Mike</w>
9th</w>
Spain</w>
What</w>
edge</w>
gar</w>
normal</w>
evacu
ections</w>
failure</w>
urban</w>
slow
killing</w>
Lew
beyond</w>
Regi
xon</w>
retre
arrang
architec
negative</w>
genus</w>
achieved</w>
Lau
D.</w>
11
oundation</w>
colum
Swe
lane</w>
dence</w>
believe</w>
Harry</w>
repu
occupied</w>
've</w>
historical</w>
draft</w>
titude</w>
Live</w>
civil</w>
bered</w>
text</w>
representa
Show</w>
Bol
threat</w>
retired</w>
touch
erly</w>
Ap
Cham
Tech</w>
Bond</w>
aling</w>
Hy
ideas</w>
vement</w>
improved</w>
Irish</w>
dly</w>
champi
substan
determined</w>
shore</w>
elling</w>
ja</w>
Ari
homes</w>
briefly</w>
etic</w>
perman
1939</w>
displa
Francis
rebel
eeds</w>
friend
convinc
sibility</w>
fuel</w>
mounted</w>
acher</w>
management</w>
1990s</w>
granted</w>
receive</w>
77</w>
bands</w>
Jersey</w>
H.</w>
stic
rejected</w>
Operation</w>
Meanwhile</w>
Albu
silver</w>
seat</w>
58</w>
pay
disease</w>
Institute</w>
lywood</w>
sured</w>
kilometres</w>
BA</w>
hospital</w>
gives</w>
extensive</w>
shall</w>
twelve</w>
57</w>
Isra
tar</w>
turning</w>
etro
R.</w>
places</w>
paper</w>
roles</w>
apers</w>
experienced</w>
Of</w>
Elizabeth</w>
Castle</w>
Def
surren
inging</w>
Sc
benef
sexual</w>
plem
expanded</w>
ank
controlled</w>
describes</w>
Due</w>
data</w>
crossing</w>
rates</w>
1985</w>
northwest</w>
gent
choice</w>
acquired</w>
1968</w>
Republican</w>
erc
didn</w>
Mast
haps</w>
arre
obj
fought</w>
allows</w>
dit</w>
administration</w>
Civil</w>
edom</w>
caught</w>
ez</w>
aid</w>
bank</w>
dged</w>
lli
counter
scheduled</w>
suggests</w>
lem
ts
800</w>
nership</w>
62</w>
drama</w>
ulated</w>
72</w>
isers</w>
ans
contact</w>
Gla
Secretary</w>
Ohi
1970</w>
vehicles</w>
step
security</w>
families</w>
P.</w>
30
Tam
split</w>
commonly</w>
hall</w>
Liver
intellig
Revi
leadership</w>
expansion</w>
Home</w>
comedy</w>
ancient</w>
Cambridge</w>
article</w>
anied</w>
Blue</w>
nam</w>
animal</w>
Top</w>
Phila
vocal</w>
TC</w>
tre</w>
Mem
seventh</w>
Doctor</w>
itors</w>
1984</w>
enter</w>
venture</w>
avalry</w>
nuclear</w>
purpose</w>
headquarters</w>
authorities</w>
Four</w>
deck</w>
transport</w>
fan</w>
MD</w>
titles</w>
phia</w>
Philadel
Oli
preme</w>
81</w>
Georgia</w>
recently</w>
waters</w>
connected</w>
powers</w>
Der
beau
defined</w>
bian</w>
Also</w>
protected</w>
Te
Gro
8th</w>
islands</w>
interchange</w>
color</w>
flag</w>
Tropical</w>
acad
Commission</w>
Braz
Ohio</w>
Ott
spread</w>
advantage</w>
sher</w>
infantry</w>
finds</w>
gic</w>
tradition</w>
Philadelphia</w>
suit</w>
Sher
singing</w>
mix</w>
credited</w>
reve
Lis
battalion</w>
Ninten
stay</w>
Rock
61</w>
dred</w>
yers</w>
wave</w>
approved</w>
unique</w>
bad</w>
arily</w>
accompanied</w>
existing</w>
Board</w>
parent</w>
fr
ults</w>
1967</w>
Writ
enni
Russia</w>
goes</w>
entirely</w>
Nintendo</w>
Rea
Ocean</w>
slo
containing</w>
Early</w>
Liverpool</w>
orchest
incident</w>
Is</w>
electric</w>
atmo
Columbia</w>
wealth</w>
valent</w>
contributed</w>
oted</w>
Song</w>
87</w>
finish</w>
div
W.</w>
Law
mist
critic</w>
provides</w>
presid
cultural</w>
connec
younger</w>
locations</w>
flooding</w>
purchased</w>
grounds</w>
fields</w>
dedicated</w>
bird</w>
filled</w>
Linc
quite</w>
Chan
holding</w>
Square</w>
budget</w>
Dor
Andrew</w>
performing</w>
Stra
guil
ables</w>
condition</w>
specim
dates</w>
Lieutenant</w>
engaged</w>
nation
Lincol
employed</w>
mic
67</w>
1980</w>
defensive</w>
attle</w>
motion</w>
jum
arrival</w>
headed</w>
Pla
currently</w>
ura</w>
ala</w>
Beat
oud</w>
iness</w>
63</w>
compla
effec
dry</w>
Asia</w>
specific
domes
Comman
posing</w>
break
stead</w>
sad
creation</w>
E.</w>
enturies</w>
ceremony</w>
folk</w>
occur</w>
Fam
Mov
Jewish</w>
Carey</w>
fare</w>
Port</w>
why</w>
rooms</w>
pher</w>
Prime</w>
App
intensity</w>
1983</w>
Mary
integ
key
carry</w>
Out
stages</w>
sels</w>
protect</w>
itch</w>
focused</w>
wise</w>
brown</w>
kins</w>
onc
lun
Francisco</w>
bon</w>
Princ
Middle</w>
guard</w>
Korean</w>
iring</w>
gain</w>
tribu
ral</w>
consist
itan</w>
closely</w>
charged</w>
consists</w>
96</w>
1964</w>
less
hill</w>
People</w>
ille</w>
master</w>
stered</w>
Ul
1969</w>
structures</w>
oration</w>
computer</w>
inking</w>
comic</w>
centuries</w>
ronic
piano</w>
philosop
recru
ller</w>
peace</w>
ger
Anderson</w>
satis
Mid
Kin
fts</w>
supporting</w>
idly</w>
Steve</w>
sent
PlayStation</w>
eplay</w>
More</w>
omen</w>
dney</w>
Once</w>
Long</w>
elimin
burgh</w>
Among</w>
1918</w>
planet</w>
anity</w>
kness</w>
intensi
Miller</w>
ketball</w>
Brian</w>
1914</w>
aim
prison</w>
bor</w>
1972</w>
79</w>
shooting</w>
knowledge</w>
sole</w>
1982</w>
murder</w>
dden</w>
zation</w>
86</w>
torpedo</w>
prepared</w>
59</w>
spac
1966</w>
Town</w>
1971</w>
themes</w>
hired</w>
council</w>
Juli
receiving</w>
fal
regions</w>
opportunity</w>
technology</w>
recognized</w>
tie</w>
ize</w>
Conference</w>
ounder</w>
Plan
ilroad</w>
Office</w>
Byz
Hit
fix
cars</w>
reading</w>
perio
ja
question</w>
plane</w>
und
ix</w>
Ever
Elec
Emperor</w>
distingu
cement</w>
analysis</w>
trains</w>
calls</w>
anda</w>
simple</w>
criticism</w>
Germans</w>
providing</w>
1979</w>
cer</w>
hydro
ied</w>
bad
Olympic</w>
reign</w>
notable</w>
conference</w>
vention</w>
ex</w>
instruc
display</w>
turing</w>
developing</w>
ca</w>
1965</w>
flow</w>
strike</w>
rapidly</w>
74</w>
patro
Only</w>
m2</w>
facilities</w>
agent</w>
evin</w>
eous</w>
System</w>
revi
Walter</w>
Shor
CD</w>
fit</w>
88</w>
99</w>
not
18th</w>
1975</w>
awards</w>
volume</w>
vel
illy</w>
shared</w>
Art</w>
lau
Order</w>
burn</w>
mann</w>
Frank
Shak
Light</w>
racy</w>
Lewis</w>
responded</w>
author
tax</w>
target</w>
solo</w>
itor</w>
where
selection</w>
digital</w>
protection</w>
descen
Pra
But
Singap
Blo
restling</w>
casualties</w>
trou
Grant</w>
cell</w>
sessions</w>
ques</w>
brief</w>
NHL</w>
Coast</w>
missing</w>
union</w>
legi
Davis</w>
68</w>
sections</w>
now
volun
temperature</w>
rare</w>
avi
71</w>
Ren
Daily</w>
entr
transi
Railway</w>
itting</w>
ria</w>
Democratic</w>
1974</w>
intersection</w>
Hollywood</w>
SS</w>
eived</w>
chance</w>
Black
ees</w>
eme</w>
HMS</w>
rie</w>
achu
isi
injured</w>
letters</w>
economy</w>
Sub
Gulf</w>
yellow</w>
rum
1973</w>
Kentu
ella</w>
reali
getting</w>
Singapore</w>
secondary</w>
label</w>
ank</w>
Post</w>
ula</w>
tex
Disney</w>
73</w>
significantly</w>
save</w>
1976</w>
sized</w>
oncé</w>
publication</w>
losses</w>
gle</w>
expedition</w>
rank</w>
Between</w>
shaped</w>
s.</w>
Over
shape</w>
knew</w>
ska</w>
popularity</w>
ege</w>
by
adding</w>
rear</w>
adult</w>
painting</w>
transpor
Origin
chae
stable</w>
McC
function</w>
Musli
unior</w>
roughly</w>
element</w>
Indu
rhy
lake</w>
Ga
eme
lers</w>
inder</w>
fashi
charts</w>
Med
anything</w>
theless</w>
rows</w>
evertheless</w>
regarding</w>
brothers</w>
arranged</w>
Arm
replace</w>
decreas
gon</w>
Beyoncé</w>
Colonel</w>
ilton</w>
Loc
lets</w>
Ass
reasons</w>
sionally</w>
pairs</w>
gameplay</w>
note</w>
El</w>
watched</w>
introduction</w>
isol
storyline</w>
Cel
Pit
tted</w>
coal</w>
daily</w>
launch</w>
Field</w>
Night</w>
lasted</w>
drop</w>
perhaps</w>
eval</w>
enjoyed</w>
temporary</w>
cham
Jour
guar
Ran
69</w>
renamed</w>
sburg</w>
resistance</w>
flan
Point</w>
cells</w>
declined</w>
89</w>
converted</w>
250</w>
missions</w>
ett</w>
82</w>
semi</w>
acres</w>
strateg
editor</w>
mon</w>
soft</w>
Nel
laws</w>
ually</w>
accur
rules</w>
estate</w>
Jean</w>
Nap
southeast</w>
fly</w>
eased</w>
nest</w>
Supreme</w>
spar
regim
Arts</w>
poem</w>
pati
Lady</w>
Az
operating</w>
cited</w>
franchise</w>
Dam
personnel</w>
abilities</w>
ari</w>
height</w>
Norway</w>
existence</w>
buried</w>
Chart</w>
ece</w>
agricul
Bet
producing</w>
scul
poses</w>
irman</w>
Kentucky</w>
alternative</w>
lling</w>
genre</w>
borne</w>
increasingly</w>
entry</w>
easily</w>
aut
1946</w>
ola</w>
1950s</w>
reputation</w>
Coll
1981</w>
steel</w>
approached</w>
teenth</w>
graded</w>
84</w>
setts</w>
literature</w>
Al</w>
combination</w>
lif
zer</w>
visual</w>
outs</w>
1917</w>
Broad
Bus
product</w>
tili
projects</w>
collected</w>
PA</w>
gro
extrem
exerc
watch</w>
Lincoln</w>
shment</w>
Women</w>
Massachu
.C.</w>
secret</w>
tices</w>
synthe
succeeded</w>
zone</w>
sects</w>
orated</w>
ich
Kir
Storm</w>
woo
Massachusetts</w>
opinion</w>
planning</w>
Jam
0th</w>
learned</w>
Mari
sustained</w>
elect
ssive</w>
straight</w>
dd</w>
prote
Prot
Airport</w>
sm</w>
Satur
Naz
un</w>
ryst
Clark</w>
Ash
94</w>
onia</w>
carrying</w>
assault</w>
grav
safety</w>
indicated</w>
sley</w>
showing</w>
pot
Daniel</w>
aves</w>
Blu
FL</w>
AR
platform</w>
700</w>
rian</w>
exchange</w>
branch</w>
extra</w>
AC
statement</w>
bited</w>
simul
settlement</w>
dor
iron</w>
improve</w>
ji</w>
Os
seems</w>
weakened</w>
cricket</w>
other
Port
1960</w>
versal</w>
request</w>
Simpsons</w>
typical</w>
Shortly</w>
Earl</w>
Lam
models</w>
defence</w>
moment</w>
stol</w>
reaction</w>
casting</w>
breeding</w>
Ini
designs</w>
IG
earliest</w>
120</w>
ruled</w>
bey</w>
Theat
Olympics</w>
1948</w>
violence</w>
didate</w>
crowd</w>
Book</w>
83</w>
farm
retained</w>
observ
freeway</w>
ini</w>
aria</w>
scientific</w>
applied</w>
Law</w>
Flo
campus</w>
ints</w>
ender</w>
Mau
alogue</w>
1978</w>
method</w>
Ep
establish</w>
Van</w>
Sydney</w>
tied</w>
forest</w>
inum</w>
Press</w>
1915</w>
assistant</w>
correc
versary</w>
reserve</w>
Sand
Cape</w>
writes</w>
environment</w>
Even</w>
southwest</w>
dering</w>
stock</w>
ampionships</w>
Mount</w>
secure</w>
coastal</w>
Cir
saurus</w>
hits</w>
stream</w>
bass</w>
cab
rone</w>
baseball</w>
Poland</w>
leton</w>
Independ
sculp
deep
bow</w>
1977</w>
stret
delivered</w>
insula</w>
ridge</w>
gradually</w>
ario</w>
07</w>
programs</w>
stopped</w>
bound
Town
Ottoman</w>
ki
items</w>
Imperial</w>
MTV</w>
marks</w>
Songs</w>
aten</w>
Vietnam</w>
Pl
settled</w>
may
candidate</w>
battery</w>
generation</w>
Pur
utionary</w>
humans</w>
bat</w>
contain</w>
Hay
oper</w>
interested</w>
Typ
Mulder</w>
maintain</w>
yn</w>
ught</w>
entrance</w>
Naval</w>
Sus
1963</w>
smo
1950</w>
breaking</w>
asser
Moore</w>
licen
bell</w>
finding</w>
Scul
supplies</w>
Super
1916</w>
issance</w>
tte</w>
descrip
cinem
camera</w>
engines</w>
Gram
prisoners</w>
Maryland</w>
hei
stadium</w>
extremely</w>
emies</w>
bomb</w>
parties</w>
entitled</w>
asks</w>
tha</w>
BN</w>
anni
neutr
urt</w>
rem
online</w>
formal</w>
ooth</w>
domestic</w>
cold</w>
hair</w>
appeal</w>
distinct</w>
lose</w>
independence</w>
cia</w>
ce
landfall</w>
aming</w>
hundred</w>
Temp
trip</w>
apar
voted</w>
studied</w>
agement</w>
confi
Liber
winner</w>
gol
fications</w>
Champi
dissi
thi
Pow
Confeder
Gordon</w>
91</w>
pag
Adams</w>
song
decade</w>
ography</w>
akes</w>
evening</w>
Bank</w>
1919</w>
tiful</w>
Chap
threatened</w>
98</w>
bought</w>
Philipp
knots</w>
glass</w>
thor
mar</w>
represent</w>
lb</w>
adapted</w>
survived</w>
conqu
message</w>
1962</w>
owner</w>
achiev
meters</w>
cus</w>
Special</w>
graphi
Instead</w>
efs</w>
So</w>
Premi
rail</w>
poration</w>
installed</w>
inspi
reduce</w>
deaths</w>
males</w>
Ben</w>
alities</w>
specifically</w>
promotion</w>
Brow
05</w>
minal</w>
ayne</w>
Pho
1938</w>
happy</w>
97</w>
Yor
recalled</w>
portrayed</w>
illa</w>
proposal</w>
bition</w>
aug
earch</w>
Sla
Corn
choo
surg
mobil
92</w>
Stadium</w>
everything</w>
duty</w>
bits</w>
capable</w>
starts</w>
compon
appropri
perfect</w>
01</w>
details</w>
arrested</w>
Tar
Vil
sufficient</w>
kings</w>
industrial</w>
Golden</w>
Radio</w>
wides
Justice</w>
offers</w>
equipped</w>
imm
eing</w>
actress</w>
93</w>
invited</w>
annon</w>
ov</w>
investigation</w>
towns</w>
servative</w>
bringing</w>
bottom</w>
disa
causes</w>
skin</w>
races</w>
tanks</w>
dating</w>
steam</w>
importance</w>
bourne</w>
Theatre</w>
zi
raid</w>
